PADDING_TOKEN
UNKNOWN_TOKEN
please
meet
ja@@
wa@@
e@@
i
and
let
me
know
the
project
details
h@@
er@@
r@@
y
that
he
will
be
able
to
attend
meeting
or
not
me@@
s
for
dinner
ton@@
ight
sh@@
i@@
j@@
u
hari
how
it
go@@
es
r
re@@
su@@
l@@
t
as
soon
possible
if
you
are
discuss
with
app@@
available
on
wednesday
this
early
av@@
a@@
ble
sat@@
ur@@
day
ch@@
and@@
a
asap
tomorrow
about
sal@@
ary
immediately
an@@
th@@
ou@@
ght
would
f@@
un
at
aj@@
as@@
an
c@@
us@@
ine
b@@
ak@@
in@@
ste@@
ad
of
lunch
us
dr@@
ks
taj
ban@@
ara
12
:
30
pm
m@@
c
donal@@
ds
around
7
s@@
n@@
ac@@
going
bur@@
g@@
er
king
5
forward
so
can
ec@@
k
some@@
one
review
ap@@
pro@@
ve
deal
vie@@
w@@
ed
by
fin@@
al
val
ask
get
we
go
ah@@
ind@@
qu@@
ma@@
friday
k@@
ir@@
today
3
00
want
li@@
en@@
ts
t@@
stat@@
d@@
hu@@
ba@@
te@@
am
our
p
ir
ia
d
like
people
new
wo
ree
do@@
ing
no@@
thing
mon@@
th
de
week
some
time
take
tes
ut@@
ure
discus@@
si@@
ons
te
po@@
further
these
in
ame
where
hi@@
m
gu@@
ys
set
up
be@@
we@@
en
after
st@@
mas
ta@@
ff
9
medi@@
le@@
res@@
es@@
ting
tuesday
now
see
when
is
over
o@@
vis@@
il@@
e
da@@
ta
office
together
par@@
ty
them
do
group
room
come
mem@@
ber@@
infor@@
med
up@@
coming
out
next
ama
4
2
wee@@
ken@@
monday
what
ab@@
ut
p@@
need
fo@@
ow
fe@@
el@@
good
can@@
ce@@
l
all
schedu@@
to@@
se@@
du@@
well
ph@@
meet@@
ings
my
mo@@
hou@@
se
vi@@
ho@@
sp@@
it@@
v@@
ation
right
call
back
com@@
ple@@
au@@
ence
issu@@
ar@@
ang@@
on@@
lo@@
finish
ce
or@@
der
ish
could
am@@
ong
ri@@
ach
1
tak@@
thursday
un@@
ti@@
wh@@
le
ge@@
al@@
lu@@
z@@
conference
n
mal@@
restaurant
y@@
jo@@
6
ese
<@@
usern@@
>
inya
tik
dan
ay@@
h
mb@@
ak
kr@@
aku
sudah
mu
lang@@
ung
juga
nya
angat
ah
tidak
so@@
seper@@
ti
man@@
tan@@
yg
lain
f
ik@@
im@@
br@@
kalo
mak@@
di@@
buat
sen@@
at@@
mungkin
ang
mau
men@@
kan
wa
saya
um@@
sama
malah
tu@@
aan
apa
bu@@
lan
tapi
ham@@
lah
gak
ke@@
anak
akan
he@@
ya
allah
baha@@
itu
harus
gn
der@@
ana
gini
j
deh
bisa
ko@@
asi
kelu@@
ga
kali
de@@
gh@@
di
bang@@
ku
em@@
pu@@
pak@@
ai
mer@@
ih
ata
lagi
g
selalu
lan@@
car@@
mu@@
je@@
jd
ing@@
et
waktu
jg
ek
dulu
any@@
ain
is@@
tr@@
udah
atau
bl@@
dia
sendiri
mp@@
ng@@
wal@@
pun
jan@@
2@@
pan@@
tp
pen@@
meng@@
uh
meny@@
ch
la@@
kes@@
annya
ju@@
ms
ter@@
baik
ect
dengan
ung@@
ar
rumah
sel@@
wak@@
unya
anya
hat
terus
semoga
pri@@
pe@@
ker@@
ja
alu
ari
af@@
kah
dik@@
yang
banyak
bal@@
ikan
da
bgt
orang
ten@@
keti@@
udh
gitu
ku@@
ada
mereka
hanya
kalau
asa
jangan
lak@@
angg@@
b
per@@
lu
kar@@
na
mat@@
sayang
belum
tu
ben@@
gi@@
sy@@
dap@@
dis@@
ka
akh@@
sur@@
kel@@
hal@@
tuk
sem@@
ati@@
ba
angan
pake
ini
dalam
pa
kur@@
pernah
amp@@
ee
mana
pa@@
ess
jat@@
dari
_@@
bag@@
ter
ny@@
dar@@
#@@
cal@@
gen@@
mas@@
pan
atan
et@@
pe
klo
dy
ga@@
sampa@@
mi@@
kay@@
har@@
punya
bak@@
u@@
iti@@
ian
dah
aa@@
&
untuk
menjadi
sak@@
si
saat
ye@@
lis@@
haha@@
ha@@
ha
bel@@
ok
ne@@
min@@
int@@
ya@@
moga
sam@@
aja
but
cer@@
ita
salah
ag@@
ern@@
ukan
suka
ru@@
bi@@
han
agi
banget
ik
ant@@
sa@@
pada@@
hal
bukan
ib@@
v
el
ri
lalu
ma
ci@@
la
dh
sa
pr@@
pal@@
20@@
baru
aw@@
kas@@
paling
sk@@
org
pl@@
fir@@
ul@@
kok
ngo@@
anti
aman
pi@@
semua
pasti
kor@@
ly
est
ort
kn@@
sm
sig@@
co@@
gr@@
ka@@
tau
lebih
pada
bil@@
sun@@
bilang
ingg@@
kasih
eh
ke
eng@@
il
alam
nam@@
amat
makin
w
karena
sho@@
jadi
biar
ra@@
amb@@
pos@@
jal@@
imana
hidup
pas
tar
o
satu
cuma
um
kal@@
emang
pel@@
masih
1@@
9@@
onal
7@@
0
nge@@
pas@@
happy
kita
deng@@
gt
bar@@
gw
mere@@
uk
ev@@
ad@@
gue
saja
ton
x
bac@@
age
pem@@
bo@@
ali@@
hati
15
sep@@
jan
wor@@
any
plan
lun@@
ding
sampe
leh
cu@@
tuh
alah
sih
ro@@
bany@@
ome@@
yes@@
sekarang
ck
ans
fu@@
kami
re
em
ser@@
gua
cen@@
bikin
ena
don@@
man
wk@@
ance
kon@@
pre@@
peng@@
kalian
mis@@
tal@@
inter@@
eng
kin
mar@@
a2
api
z
ail@@
bah@@
cou@@
mung@@
ö
adi
ll
+
ment
pern@@
rep@@
ally
con@@
hab@@
ase
leb@@
ca@@
its
diri
ill
ge
kam@@
pul@@
sub@@
q
ati
cinta
hi
ic@@
yo@@
anda
ap
au
hidu@@
pur@@
oh
ong@@
war@@
tiap
tion
terim@@
cum@@
kamu
kau
bus@@
10
tah@@
tak
telah
8@@
men
ink
temp@@
adalah
>@@
&@@
bes@@
las@@
dak
att@@
isa
ace
mc@@
wan@@
ji@@
ras@@
dar
tel@@
dn@@
*@@
lo
nger@@
gar@@
oo@@
ner
0@@
fi@@
din@@
+@@
makan
ers
ere
jun@@
x@@
_
ot
≤
ach@@
q@@
gg@@
main
san
cin@@
rec@@
for@@
semu@@
was
mor@@
before
takut
gh
tur@@
stre@@
ent
hel@@
bik@@
ber
oon
~
username
url
ted
your
op@@
ver@@
ant
18
also
\
email
jam
jalan
esti@@
hotel
7th
des@@
mail
just
ust
comp@@
od
3@@
lat@@
way
om
make
schedule
ite
rom
4@@
8
oc@@
starbucks
rece@@
20
5@@
6@@
ver
no
think
wn
2018
wit@@
ff@@
give
look
happ@@
sc@@
ike
food
from
fri@@
sti@@
st
%
they
ning
ex@@
__@@
=@@
don
clo@@
ate
sed
the@@
`
son
*
fer@@
may
11
sion
ld
wel@@
cafe
ound
other
mber
morning
date
pon@@
^@@
^
ice
{@@
}
ember
#
tel
use
cont@@
ve@@
ever@@
=
still
city
have
ving
first
shar@@
ely
town
help
~@@
should
work
more
hello
coffee
ity
july
respon@@
chang@@
ear@@
quarter
later
deta@@
nd
sekar@@
umah
talk
tly
rd
`@@
reply
ward
because
send
ther
here
there
star@@
01
night
even@@
ils
<
ich
try
5th
row
park
off@@
september
tober
45
2nd
mation
then
xt
cause
free
subscri@@
1st
aliz@@
proj@@
view
ments
disc@@
%@@
kind@@
confirm
act
#3@@
regar@@
discussion
minu@@
afternoon
avail@@
january
ately
who
atten@@
evening
past
october
contact
questions
&#39
anything
march
3rd
kindly
contr@@
—
quic@@
few
possi@@
&quot
information
shall
immedi@@
estions
omega
find
business
august
contract
@@
sunday
yesterday
quar@@
\@@
thur@@
fore
uary
0pm
clock
lets
confir@@
aug@@
cks
|
grou@@
finaliz@@
|@@
😇@@
✈@@
🍟@@
🍗@@
🍖
noon
finalize
mcdonal@@
thurs@@
’@@
aftern@@
busin@@
♫
aft@@
•
restaur@@
fur@@
–@@
é@@
á@@
—@@
ference
caf@@
ç@@
morrow
scri@@
starbu@@
septe@@
coff@@
é
yester@@
