PADDING_TOKEN
UNKNOWN_TOKEN
<@@
usern@@
a@@
me@@
>
as@@
l@@
inya
can@@
tik
dan
ay@@
u
lo@@
h
mb@@
ak
kr@@
n
aku
sudah
ber@@
te@@
mu
lang@@
s@@
ung
juga
se@@
ak@@
nya
angat
r@@
am@@
ah
tidak
so@@
ong
seper@@
ti
man@@
tan@@
2
yg
lain
h@@
he
ma@@
f
ik@@
ut
n@@
im@@
br@@
kalo
mak@@
e@@
up
di@@
buat
sen@@
at@@
ur@@
al
mungkin
mem@@
ang
mau
men@@
on@@
jo@@
kan
wa
su@@
i
saya
um@@
an
sama
a
malah
tu@@
aan
be@@
apa
bu@@
lan
tapi
al@@
ham@@
du@@
il@@
lah
gak
ke@@
k@@
anak
an@@
akan
he@@
ya
allah
baha@@
g@@
ia
itu
harus
d@@
gn
c@@
ara
w@@
der@@
ana
gini
j
deh
bisa
ko@@
m@@
un@@
asi
kelu@@
ar@@
ga
sal@@
kali
ban@@
ting
de@@
gh@@
i@@
p@@
k
di
bang@@
ku
em@@
pu@@
pak@@
ai
c
mer@@
po@@
ih
y@@
at
j@@
el@@
ata
lagi
in
g
selalu
lan@@
car@@
mu@@
da@@
re@@
je@@
jd
ing@@
et
waktu
y
jg
go@@
ek
dulu
p
any@@
ain
is@@
tr@@
udah
atau
bl@@
m
l
dia
sendiri
en@@
t@@
mp@@
ng@@
wal@@
au@@
pun
hu@@
jan@@
2@@
pan@@
tp
pen@@
meng@@
uh
meny@@
emp@@
ou@@
ch
la@@
kes@@
annya
ju@@
ms
do@@
ter@@
baik
res@@
ect
dengan
ung@@
ab@@
ar
rumah
in@@
t
ja@@
sel@@
wak@@
unya
ap@@
un
pro@@
f@@
es@@
anya
hat
terus
semoga
ac@@
pri@@
ti@@
pe@@
ker@@
ja
as
alu
ari
af@@
kah
dik@@
it
yang
banyak
bal@@
ikan
da
bgt
orang
ken@@
ang@@
ten@@
gu@@
r
keti@@
o@@
udh
gitu
ku@@
ada
ah@@
mereka
hanya
ut@@
kalau
asa
to@@
jangan
er@@
ta@@
b@@
le@@
lak@@
angg@@
wa@@
b
per@@
lu
kar@@
na
mat@@
is
sayang
belum
tu
ben@@
gi@@
sy@@
dap@@
dis@@
ka
akh@@
sur@@
kel@@
hal@@
tuk
sem@@
or@@
it@@
ama
us
ir
s
ati@@
ba
angan
pake
ini
dalam
pa
kur@@
:
pernah
all
ta
amp@@
ee
mana
pa@@
er
ess
jat@@
dari
on
_@@
bag@@
ter
ny@@
dar@@
#@@
cal@@
gen@@
mas@@
pan
atan
z@@
li@@
ge@@
et@@
pe
klo
dy
ga@@
aj@@
sampa@@
hari
ir@@
mi@@
lu@@
kay@@
har@@
punya
bak@@
u@@
iti@@
ian
dah
ri@@
d
aa@@
&
untuk
menjadi
sak@@
si
saat
ye@@
lis@@
haha@@
ha@@
ha
bel@@
ok
si@@
ne@@
min@@
int@@
ya@@
moga
sam@@
aja
and@@
but
cer@@
ita
salah
ag@@
ern@@
ukan
suka
ru@@
bi@@
han
agi
banget
ik
en
ant@@
sa@@
pada@@
hal
bukan
ib@@
v
el
ri
am
lalu
ind@@
ma
us@@
ci@@
la
dh
sa
pr@@
ba@@
pal@@
20@@
baru
aw@@
kas@@
paling
ing
sk@@
org
pl@@
fir@@
ul@@
tak@@
kok
mon@@
anti
aman
pi@@
semua
pasti
kor@@
ly
the
est
ort
kn@@
sm
sig@@
ble
co@@
gr@@
ka@@
tau
te
lebih
pada
to
bil@@
sun@@
bilang
ingg@@
kasih
eh
ke
eng@@
hi@@
il
alam
nam@@
amat
makin
ce@@
w
karena
sh@@
jadi
biar
ra@@
amb@@
pos@@
jal@@
imana
hidup
mo@@
pas
tar
o
ce
satu
cuma
um
kal@@
emang
ow
pel@@
masih
1@@
9@@
6
onal
7@@
0
nge@@
pas@@
ph@@
happy
day
kita
deng@@
gt
bar@@
gw
mere@@
uk
ev@@
ad@@
gue
1
saja
ton
ve
x
bac@@
st@@
age
fin@@
le
pem@@
bo@@
ali@@
hati
15
sep@@
jan
fe@@
7
wor@@
ks
any
ys
plan
th@@
our
lun@@
30
5
we@@
ding
sampe
leh
cu@@
tuh
we
alah
of
sih
ro@@
me
bany@@
men
yes@@
ch@@
sekarang
good
ck
ans
mas
fu@@
kami
re
em
ser@@
gua
cen@@
bikin
go
ena
don@@
man
wk@@
ance
ts
kon@@
pre@@
tes
ational
peng@@
kalian
mis@@
take
tal@@
inter@@
3
eng
kin
mar@@
ad
a2
api
bur@@
and
z
ail@@
bah@@
med
cou@@
mung@@
so
ö
adi
ll
+
ment
pern@@
are
ally
con@@
ec@@
v@@
es
hab@@
ase
do
ds
now
leb@@
no@@
you
th
ca@@
its
vi@@
mal@@
diri
e
ill
ge
de
wo
kam@@
pul@@
dr@@
sub@@
stat@@
q
wee@@
par@@
by
ati
cinta
hi
ic@@
sp@@
yo@@
anda
ap
au
ho@@
hidu@@
pur@@
oh
ong@@
war@@
tiap
tion
terim@@
cum@@
kamu
kau
bus@@
10
tah@@
up@@
tak
telah
8@@
sat@@
ink
temp@@
adalah
>@@
&@@
bes@@
ff
las@@
dak
att@@
isa
ish
ine
ste@@
ace
mc@@
ure
wan@@
ji@@
let
ras@@
get
dar
tel@@
or
dn@@
*@@
lo
nger@@
gar@@
wh@@
oo@@
der
se
ner
0@@
ob@@
fi@@
ton@@
din@@
py
com@@
ol@@
+@@
makan
ers
ere
ur
jun@@
x@@
be
_
ot
ese
≤
ach@@
q@@
gg@@
main
4
san
cin@@
please
rec@@
rep@@
one
my
for@@
semu@@
was
mor@@
before
after
infor@@
takut
gh
tur@@
if
stre@@
ent
hel@@
ket
bik@@
ber
oon
9
~
username
right
king
well
url
ted
ight
your
op@@
ver@@
not
ant
together
18
also
out
\
meeting
email
ed
jam
jalan
office
esti@@
see
when
hotel
7th
des@@
mail
just
with
ust
comp@@
qu@@
3@@
way
om
make
will
schedule
ite
rom
4@@
8
oc@@
starbucks
rece@@
able
20
av@@
5@@
6@@
ver
ome@@
no
think
wn
say
vis@@
inform@@
2018
wit@@
ff@@
lat@@
ach
give
look
hap@@
ary
sc@@
ike
food
this
from
some@@
fri@@
sti@@
00
st
%
for
12
like
they
that
thing
ning
ex@@
ence
__@@
=@@
don
back
clo@@
ate
sed
ty
some
ons
the@@
deal
`
time
son
*
fer@@
may
11
sion
ld
wel@@
come
medi@@
ood
room
cafe
can
ound
other
mber
morning
what
them
need
date
pon@@
^@@
^
review
vie@@
val
could
about
ice
ple@@
ame
{@@
}
ember
#
tel
use
cont@@
ve@@
ever@@
ings
=
still
coming
soon
city
have
ving
project
first
shar@@
ght
ely
town
help
~@@
ation
should
work
more
hou@@
hello
coffee
ity
july
respon@@
know
new
chang@@
would
ear@@
quarter
later
call
want
deta@@
nd
pm
sekar@@
tomorrow
umah
talk
tly
rd
over
`@@
reply
ward
how
because
send
ther
here
there
star@@
01
night
meet@@
even@@
ils
<
next
ich
try
5th
row
park
meet
discuss
off@@
tuesday
september
tober
45
where
2nd
group
then
xt
cause
free
subscri@@
1st
aliz@@
asap
lunch
proj@@
view
ments
ask
around
disc@@
%@@
today
these
kind@@
confirm
act
#3@@
wednesday
week
schedu@@
regar@@
discussion
ree
monday
minu@@
immediately
further
early
afternoon
avail@@
friday
january
ately
who
discus@@
atten@@
available
evening
past
going
october
contact
questions
thursday
dinner
&#39
anything
march
3rd
kindly
contr@@
—
conference
finish
possible
forward
quic@@
few
possi@@
&quot
attend
information
shall
immedi@@
estions
details
omega
find
business
august
contract
@@
sunday
yesterday
quar@@
\@@
donal@@
thur@@
fore
uary
restaurant
0pm
clock
taj
lets
confir@@
aug@@
cks
|
grou@@
finaliz@@
|@@
😇@@
✈@@
🍟@@
🍗@@
🍖
noon
finalize
mcdonal@@
thurs@@
’@@
aftern@@
busin@@
♫
aft@@
•
restaur@@
fur@@
–@@
é@@
á@@
—@@
ference
caf@@
ç@@
morrow
scri@@
starbu@@
septe@@
coff@@
é
yester@@
